// Auto-generated by step4_convert_tflite.py
// Model: Heart Rate Anomaly Autoencoder
// Size : 4800 bytes (4.7 KB)
// Input: 8 float32 features (normalized)
// Output: 8 float32 reconstructed features
// Anomaly threshold: 0.088930

#ifndef HEART_MODEL_H
#define HEART_MODEL_H

const unsigned int heart_model_len = 4800;
const unsigned char heart_model_data[] = {
  0x20, 0x00, 0x00, 0x00, 0x54, 0x46, 0x4c, 0x33, 0x00, 0x00, 0x00, 0x00, 0x14, 0x00, 0x20, 0x00, 0x1c, 0x00, 0x18, 0x00, 0x14, 0x00, 0x10, 0x00, 0x0c, 0x00, 0x00, 0x00, 0x08, 0x00, 0x04, 0x00, 0x14, 0x00, 0x00, 0x00, 0x1c, 0x00, 0x00, 0x00, 0x80, 0x00, 0x00, 0x00, 0xd8, 0x00, 0x00, 0x00, 0xa8, 0x05, 0x00, 0x00, 0xb8, 0x05, 0x00, 0x00, 0x34, 0x12, 0x00, 0x00, 0x03, 0x00, 0x00, 0x00, 0x01, 0x00, 0x00, 0x00, 0x04, 0x00, 0x00, 0x00, 0xfa, 0xf9, 0xff, 0xff, 0x0c, 0x00, 0x00, 0x00, 0x1c, 0x00, 0x00, 0x00, 0x38, 0x00, 0x00, 0x00, 0x0f, 0x00, 0x00, 0x00, 0x73, 0x65, 0x72, 0x76, 0x69, 0x6e, 0x67, 0x5f, 0x64, 0x65, 0x66, 0x61, 0x75, 0x6c, 0x74, 0x00, 0x01, 0x00, 0x00, 0x00, 0x04, 0x00, 0x00, 0x00, 0x9c, 0xff, 0xff, 0xff, 0x14, 0x00, 0x00, 0x00, 0x04, 0x00, 0x00, 0x00, 0x06, 0x00, 0x00, 0x00, 0x6f, 0x75, 0x74, 0x70, 0x75, 0x74, 0x00, 0x00, 0x01, 0x00, 0x00, 0x00, 0x04, 0x00, 0x00, 0x00, 0xf6, 0xfa, 0xff, 0xff, 0x04, 0x00, 0x00, 0x00, 0x05, 0x00, 0x00, 0x00, 0x69, 0x6e, 0x70, 0x75, 0x74, 0x00, 0x00, 0x00, 0x02, 0x00, 0x00, 0x00, 0x34, 0x00, 0x00, 0x00, 0x04, 0x00, 0x00, 0x00, 0xdc, 0xff, 0xff, 0xff, 0x17, 0x00, 0x00, 0x00, 0x04, 0x00, 0x00, 0x00, 0x13, 0x00, 0x00, 0x00, 0x43, 0x4f, 0x4e, 0x56, 0x45, 0x52, 0x53, 0x49, 0x4f, 0x4e, 0x5f, 0x4d, 0x45, 0x54, 0x41, 0x44, 0x41, 0x54, 0x41, 0x00, 0x08, 0x00, 0x0c, 0x00, 0x08, 0x00, 0x04, 0x00, 0x08, 0x00, 0x00, 0x00, 0x16, 0x00, 0x00, 0x00, 0x04, 0x00, 0x00, 0x00, 0x13, 0x00, 0x00, 0x00, 0x6d, 0x69, 0x6e, 0x5f, 0x72, 0x75, 0x6e, 0x74, 0x69, 0x6d, 0x65, 0x5f, 0x76, 0x65, 0x72, 0x73, 0x69, 0x6f, 0x6e, 0x00, 0x18, 0x00, 0x00, 0x00, 0xcc, 0x04, 0x00, 0x00, 0xc4, 0x04, 0x00, 0x00, 0x94, 0x04, 0x00, 0x00, 0xfc, 0x03, 0x00, 0x00, 0xac, 0x03, 0x00, 0x00, 0x1c, 0x03, 0x00, 0x00, 0xec, 0x02, 0x00, 0x00, 0xbc, 0x02, 0x00, 0x00, 0x9c, 0x02, 0x00, 0x00, 0x6c, 0x02, 0x00, 0x00, 0x3c, 0x02, 0x00, 0x00, 0xac, 0x01, 0x00, 0x00, 0x5c, 0x01, 0x00, 0x00, 0xcc, 0x00, 0x00, 0x00, 0xc4, 0x00, 0x00, 0x00, 0xbc, 0x00, 0x00, 0x00, 0xb4, 0x00, 0x00, 0x00, 0xac, 0x00, 0x00, 0x00, 0xa4, 0x00, 0x00, 0x00, 0x9c, 0x00, 0x00, 0x00, 0x94, 0x00, 0x00, 0x00, 0x8c, 0x00, 0x00, 0x00, 0x6c, 0x00, 0x00, 0x00, 0x04, 0x00, 0x00, 0x00, 0xca, 0xfb, 0xff, 0xff, 0x04, 0x00, 0x00, 0x00, 0x58, 0x00, 0x00, 0x00, 0x0c, 0x00, 0x00, 0x00, 0x08, 0x00, 0x0e, 0x00, 0x08, 0x00, 0x04, 0x00, 0x08, 0x00, 0x00, 0x00, 0x10, 0x00, 0x00, 0x00, 0x28, 0x00, 0x00, 0x00, 0x00, 0x00, 0x06, 0x00, 0x08, 0x00, 0x04, 0x00, 0x06, 0x00, 0x00, 0x00, 0x04, 0x00, 0x00, 0x00, 0x01, 0x00, 0x00, 0x00, 0xeb, 0x03, 0x00, 0x00, 0x00, 0x00, 0x0a, 0x00, 0x10, 0x00, 0x0c, 0x00, 0x08, 0x00, 0x04, 0x00, 0x0a, 0x00, 0x00, 0x00, 0x02, 0x00, 0x00, 0x00, 0x02, 0x00, 0x00, 0x00, 0x04, 0x00, 0x00, 0x00, 0x06, 0x00, 0x00, 0x00, 0x32, 0x2e, 0x31, 0x33, 0x2e, 0x30, 0x00, 0x00, 0x2e, 0xfc, 0xff, 0xff, 0x04, 0x00, 0x00, 0x00, 0x10, 0x00, 0x00, 0x00, 0x31, 0x2e, 0x31, 0x34, 0x2e, 0x30, 0x00, 0x00, 0x00, 0x00, 0x00, 0x00, 0x00, 0x00, 0x00, 0x00, 0xac, 0xef, 0xff, 0xff, 0xb0, 0xef, 0xff, 0xff, 0xb4, 0xef, 0xff, 0xff, 0xb8, 0xef, 0xff, 0xff, 0xbc, 0xef, 0xff, 0xff, 0xc0, 0xef, 0xff, 0xff, 0xc4, 0xef, 0xff, 0xff, 0xc8, 0xef, 0xff, 0xff, 0x6a, 0xfc, 0xff, 0xff, 0x04, 0x00, 0x00, 0x00, 0x80, 0x00, 0x00, 0x00, 0xff, 0x21, 0x07, 0x0b, 0x47, 0x16, 0xf5, 0xec, 0x06, 0x20, 0x1a, 0x16, 0xdb, 0xe1, 0x07, 0xde, 0x10, 0x14, 0x24, 0xf0, 0xf5, 0x1d, 0x1b, 0x0f, 0x2a, 0x1a, 0xcb, 0xf8, 0x3e, 0xf6, 0xfb, 0x15, 0x25, 0xbf, 0x3a, 0x12, 0xd0, 0x10, 0x0f, 0x02, 0xee, 0x24, 0xfe, 0xef, 0x00, 0x06, 0x04, 0xf0, 0x01, 0x01, 0x4e, 0x09, 0xea, 0xca, 0xed, 0xd8, 0xf0, 0xdf, 0xd9, 0xd1, 0x2f, 0x3b, 0x0f, 0x06, 0xc4, 0xeb, 0x7f, 0x06, 0x96, 0xdf, 0x20, 0xf8, 0xf6, 0x42, 0x06, 0xed, 0xf4, 0x05, 0xea, 0xf3, 0xf4, 0x1a, 0x41, 0xe7, 0xf5, 0xc9, 0xea, 0xd1, 0xeb, 0x0a, 0xd4, 0xdb, 0x32, 0xe0, 0x15, 0x2d, 0xfd, 0x03, 0x11, 0xe8, 0xfb, 0xe1, 0xd9, 0x00, 0x02, 0x14, 0x22, 0xdd, 0xba, 0xdb, 0x03, 0x08, 0x06, 0x0d, 0x50, 0x04, 0xd5, 0x03, 0xe5, 0x0f, 0xfa, 0xdc, 0x04, 0x0f, 0xe7, 0x46, 0x11, 0x21, 0xf6, 0xfc, 0xff, 0xff, 0x04, 0x00, 0x00, 0x00, 0x40, 0x00, 0x00, 0x00, 0xa9, 0xfc, 0xff, 0xff, 0x2c, 0x03, 0x00, 0x00, 0xd4, 0x08, 0x00, 0x00, 0x85, 0x01, 0x00, 0x00, 0x73, 0x01, 0x00, 0x00, 0x61, 0x03, 0x00, 0x00, 0x48, 0x01, 0x00, 0x00, 0x46, 0xfe, 0xff, 0xff, 0xf3, 0x01, 0x00, 0x00, 0x22, 0x07, 0x00, 0x00, 0xc2, 0x01, 0x00, 0x00, 0x2a, 0x07, 0x00, 0x00, 0x6d, 0x02, 0x00, 0x00, 0x0c, 0x05, 0x00, 0x00, 0x08, 0x09, 0x00, 0x00, 0xbf, 0x02, 0x00, 0x00, 0x42, 0xfd, 0xff, 0xff, 0x04, 0x00, 0x00, 0x00, 0x80, 0x00, 0x00, 0x00, 0x04, 0x01, 0x08, 0xfa, 0xee, 0xf5, 0xd6, 0x3b, 0x31, 0xe9, 0x1b, 0xed, 0x07, 0x48, 0x1b, 0x10, 0xe7, 0x28, 0x42, 0x20, 0xf5, 0x24, 0xc9, 0xf4, 0x81, 0xf4, 0x0d, 0x16, 0x05, 0x10, 0xe0, 0x31, 0xb1, 0x2c, 0x03, 0x8e, 0x30, 0xfa, 0x06, 0x97, 0xe2, 0x3c, 0x04, 0x1b, 0xf1, 0x05, 0x05, 0xeb, 0x26, 0xe7, 0x01, 0x1a, 0xff, 0xde, 0x11, 0xdc, 0x1a, 0x3b, 0x39, 0x28, 0xfb, 0xe6, 0x3c, 0xde, 0xe3, 0xf0, 0x0f, 0x2e, 0x1d, 0xe8, 0x2c, 0x05, 0x0a, 0xd0, 0xf4, 0x2f, 0x2e, 0x25, 0x15, 0xf2, 0xb1, 0xe0, 0x1b, 0x35, 0x0b, 0xe7, 0x26, 0x14, 0x2b, 0x1a, 0xf5, 0x1d, 0x1b, 0x2b, 0x3e, 0x01, 0xd3, 0x19, 0x29, 0xeb, 0xf2, 0x1d, 0x20, 0xfe, 0x57, 0x11, 0x40, 0x48, 0x1e, 0x20, 0x0e, 0x30, 0x0c, 0x27, 0x19, 0xae, 0x19, 0xfe, 0x2e, 0xde, 0x51, 0xfe, 0x12, 0xea, 0x0f, 0x23, 0xf7, 0x1d, 0xce, 0xfd, 0xff, 0xff, 0x04, 0x00, 0x00, 0x00, 0x20, 0x00, 0x00, 0x00, 0x58, 0x00, 0x00, 0x00, 0x28, 0x02, 0x00, 0x00, 0x26, 0xfd, 0xff, 0xff, 0xc1, 0x00, 0x00, 0x00, 0x99, 0x03, 0x00, 0x00, 0xd6, 0x05, 0x00, 0x00, 0xaf, 0x04, 0x00, 0x00, 0xad, 0x00, 0x00, 0x00, 0xfa, 0xfd, 0xff, 0xff, 0x04, 0x00, 0x00, 0x00, 0x20, 0x00, 0x00, 0x00, 0x60, 0x7b, 0xee, 0xfd, 0x03, 0x1b, 0x24, 0xe3, 0xd8, 0x56, 0xcb, 0x17, 0xde, 0xb0, 0x5a, 0x3c, 0xd0, 0x54, 0xbc, 0x64, 0x01, 0x5c, 0xde, 0x18, 0x43, 0xf6, 0x75, 0x0d, 0x12, 0x44, 0x5b, 0x7f, 0x26, 0xfe, 0xff, 0xff, 0x04, 0x00, 0x00, 0x00, 0x10, 0x00, 0x00, 0x00, 0xdf, 0x01, 0x00, 0x00, 0xb4, 0x03, 0x00, 0x00, 0x59, 0x00, 0x00, 0x00, 0xce, 0xfe, 0xff, 0xff, 0x42, 0xfe, 0xff, 0xff, 0x04, 0x00, 0x00, 0x00, 0x20, 0x00, 0x00, 0x00, 0xe1, 0x25, 0x00, 0xcd, 0x07, 0x50, 0x55, 0xcd, 0xc4, 0x7a, 0x3e, 0xfc, 0xb6, 0x4c, 0xd3, 0xbd, 0xb5, 0x2a, 0x10, 0x5c, 0xfa, 0xfc, 0xf2, 0x5f, 0x68, 0x2a, 0xfd, 0xeb, 0x0e, 0xf7, 0x7f, 0xfb, 0x6e, 0xfe, 0xff, 0xff, 0x04, 0x00, 0x00, 0x00, 0x20, 0x00, 0x00, 0x00, 0x2b, 0xff, 0xff, 0xff, 0x0a, 0xf8, 0xff, 0xff, 0x7a, 0x02, 0x00, 0x00, 0x00, 0x00, 0x00, 0x00, 0x04, 0x04, 0x00, 0x00, 0x9f, 0xfb, 0xff, 0xff, 0xd7, 0x03, 0x00, 0x00, 0x61, 0x03, 0x00, 0x00, 0x9a, 0xfe, 0xff, 0xff, 0x04, 0x00, 0x00, 0x00, 0x80, 0x00, 0x00, 0x00, 0x37, 0xd6, 0xe0, 0xfe, 0xc8, 0x3a, 0xfe, 0x40, 0x20, 0x3b, 0xfc, 0x21, 0xc1, 0x21, 0x3e, 0x2d, 0xef, 0xbb, 0x10, 0x0f, 0xc5, 0xfc, 0xf6, 0xfc, 0xd2, 0xec, 0x46, 0x40, 0x3a, 0xe3, 0x32, 0xd6, 0xce, 0xe8, 0x4c, 0x42, 0xf9, 0xf0, 0x3a, 0x47, 0xef, 0xed, 0x32, 0x0f, 0x31, 0xde, 0xb8, 0x28, 0xfe, 0x29, 0xd6, 0x27, 0xef, 0xbb, 0xbd, 0xf2, 0xe2, 0xea, 0xd1, 0x29, 0x11, 0x44, 0xb1, 0xc9, 0xd7, 0x32, 0x59, 0xda, 0x0e, 0xde, 0x97, 0x05, 0xdb, 0x8a, 0x3e, 0xf4, 0x4a, 0x01, 0xd7, 0xda, 0xb4, 0x30, 0xf9, 0x2f, 0x3f, 0xee, 0xb6, 0x0e, 0x04, 0x63, 0x3d, 0x2f, 0x10, 0x46, 0x0b, 0x20, 0x33, 0xc1, 0xf3, 0x32, 0x81, 0xd4, 0x67, 0x1b, 0xf0, 0x2d, 0x70, 0xc7, 0xe6, 0x94, 0x26, 0x00, 0xfc, 0xc3, 0x0a, 0x22, 0xd3, 0x3f, 0x6f, 0xde, 0xf2, 0x2c, 0xdf, 0x27, 0xb8, 0xe4, 0x14, 0x66, 0x26, 0xff, 0xff, 0xff, 0x04, 0x00, 0x00, 0x00, 0x40, 0x00, 0x00, 0x00, 0x85, 0x06, 0x00, 0x00, 0xa1, 0xf4, 0xff, 0xff, 0x00, 0x00, 0x00, 0x00, 0x92, 0x05, 0x00, 0x00, 0xbc, 0xff, 0xff, 0xff, 0xd1, 0xfe, 0xff, 0xff, 0x45, 0x00, 0x00, 0x00, 0x72, 0xec, 0xff, 0xff, 0xe8, 0x04, 0x00, 0x00, 0xa7, 0x01, 0x00, 0x00, 0xf4, 0x03, 0x00, 0x00, 0x24, 0xfd, 0xff, 0xff, 0x32, 0x04, 0x00, 0x00, 0x4e, 0x04, 0x00, 0x00, 0xe7, 0xfa, 0xff, 0xff, 0xef, 0xfc, 0xff, 0xff, 0x72, 0xff, 0xff, 0xff, 0x04, 0x00, 0x00, 0x00, 0x80, 0x00, 0x00, 0x00, 0x12, 0x32, 0x0b, 0x9d, 0xe7, 0xc1, 0x31, 0x44, 0x21, 0x4d, 0xfc, 0x03, 0x52, 0xf2, 0xa6, 0x35, 0xc0, 0x0e, 0x10, 0xca, 0xfc, 0xed, 0x3b, 0xe6, 0x24, 0xe5, 0x34, 0x27, 0xf2, 0x2c, 0x20, 0xfe, 0xe9, 0xe9, 0xc7, 0xad, 0x3b, 0x15, 0xe8, 0x43, 0xf5, 0x1c, 0xe7, 0x01, 0x01, 0x10, 0x16, 0xd9, 0xd5, 0xbb, 0x17, 0x22, 0x09, 0x3e, 0xe5, 0x11, 0xbd, 0x14, 0x17, 0xcf, 0x4e, 0x42, 0xe4, 0x33, 0x03, 0xe3, 0xfa, 0x0e, 0x59, 0x1b, 0xdb, 0x5d, 0x04, 0xef, 0xe7, 0xcb, 0x05, 0x02, 0x0a, 0x06, 0xf9, 0x20, 0xe3, 0xc8, 0x1f, 0x37, 0x0f, 0x02, 0xf3, 0x26, 0x38, 0xbd, 0x14, 0x4a, 0x66, 0xfc, 0xb6, 0x23, 0xc3, 0x3b, 0xf8, 0x90, 0xf9, 0x7f, 0xb9, 0x1a, 0xe6, 0xd9, 0xb7, 0x10, 0x2f, 0x56, 0xeb, 0xcf, 0xc3, 0x9b, 0x06, 0xfa, 0x2d, 0x10, 0xdd, 0xc8, 0xfa, 0x39, 0xec, 0x04, 0x44, 0x10, 0x00, 0x00, 0x06, 0x00, 0x08, 0x00, 0x04, 0x00, 0x06, 0x00, 0x00, 0x00, 0x04, 0x00, 0x00, 0x00, 0x20, 0x00, 0x00, 0x00, 0xd8, 0x03, 0x00, 0x00, 0x4c, 0xfb, 0xff, 0xff, 0x30, 0xfb, 0xff, 0xff, 0x1b, 0x05, 0x00, 0x00, 0x80, 0xfe, 0xff, 0xff, 0x2c, 0xfd, 0xff, 0xff, 0xf8, 0xff, 0xff, 0xff, 0x3c, 0x00, 0x00, 0x00, 0x94, 0xf3, 0xff, 0xff, 0x98, 0xf3, 0xff, 0xff, 0x0f, 0x00, 0x00, 0x00, 0x4d, 0x4c, 0x49, 0x52, 0x20, 0x43, 0x6f, 0x6e, 0x76, 0x65, 0x72, 0x74, 0x65, 0x64, 0x2e, 0x00, 0x01, 0x00, 0x00, 0x00, 0x14, 0x00, 0x00, 0x00, 0x00, 0x00, 0x0e, 0x00, 0x18, 0x00, 0x14, 0x00, 0x10, 0x00, 0x0c, 0x00, 0x08, 0x00, 0x04, 0x00, 0x0e, 0x00, 0x00, 0x00, 0x14, 0x00, 0x00, 0x00, 0x1c, 0x00, 0x00, 0x00, 0x04, 0x02, 0x00, 0x00, 0x08, 0x02, 0x00, 0x00, 0x0c, 0x02, 0x00, 0x00, 0x04, 0x00, 0x00, 0x00, 0x6d, 0x61, 0x69, 0x6e, 0x00, 0x00, 0x00, 0x00, 0x08, 0x00, 0x00, 0x00, 0xcc, 0x01, 0x00, 0x00, 0x7c, 0x01, 0x00, 0x00, 0x30, 0x01, 0x00, 0x00, 0xe4, 0x00, 0x00, 0x00, 0xa8, 0x00, 0x00, 0x00, 0x6c, 0x00, 0x00, 0x00, 0x34, 0x00, 0x00, 0x00, 0x10, 0x00, 0x00, 0x00, 0x00, 0x00, 0x0a, 0x00, 0x10, 0x00, 0x0c, 0x00, 0x08, 0x00, 0x04, 0x00, 0x0a, 0x00, 0x00, 0x00, 0x0c, 0x00, 0x00, 0x00, 0x10, 0x00, 0x00, 0x00, 0x02, 0x00, 0x00, 0x00, 0x01, 0x00, 0x00, 0x00, 0x14, 0x00, 0x00, 0x00, 0x01, 0x00, 0x00, 0x00, 0x13, 0x00, 0x00, 0x00, 0x22, 0xff, 0xff, 0xff, 0x14, 0x00, 0x00, 0x00, 0x00, 0x00, 0x00, 0x08, 0x10, 0x00, 0x00, 0x00, 0x14, 0x00, 0x00, 0x00, 0x01, 0x00, 0x00, 0x00, 0x54, 0xf4, 0xff, 0xff, 0x01, 0x00, 0x00, 0x00, 0x13, 0x00, 0x00, 0x00, 0x03, 0x00, 0x00, 0x00, 0x12, 0x00, 0x00, 0x00, 0x02, 0x00, 0x00, 0x00, 0x01, 0x00, 0x00, 0x00, 0x56, 0xff, 0xff, 0xff, 0x14, 0x00, 0x00, 0x00, 0x00, 0x00, 0x00, 0x08, 0x14, 0x00, 0x00, 0x00, 0x18, 0x00, 0x00, 0x00, 0x01, 0x00, 0x00, 0x00, 0xfe, 0xfe, 0xff, 0xff, 0x00, 0x00, 0x00, 0x01, 0x01, 0x00, 0x00, 0x00, 0x12, 0x00, 0x00, 0x00, 0x03, 0x00, 0x00, 0x00, 0x11, 0x00, 0x00, 0x00, 0x04, 0x00, 0x00, 0x00, 0x03, 0x00, 0x00, 0x00, 0x8e, 0xff, 0xff, 0xff, 0x14, 0x00, 0x00, 0x00, 0x00, 0x00, 0x00, 0x08, 0x14, 0x00, 0x00, 0x00, 0x18, 0x00, 0x00, 0x00, 0x01, 0x00, 0x00, 0x00, 0x36, 0xff, 0xff, 0xff, 0x00, 0x00, 0x00, 0x01, 0x01, 0x00, 0x00, 0x00, 0x11, 0x00, 0x00, 0x00, 0x03, 0x00, 0x00, 0x00, 0x10, 0x00, 0x00, 0x00, 0x06, 0x00, 0x00, 0x00, 0x05, 0x00, 0x00, 0x00, 0xc6, 0xff, 0xff, 0xff, 0x14, 0x00, 0x00, 0x00, 0x00, 0x00, 0x00, 0x08, 0x14, 0x00, 0x00, 0x00, 0x18, 0x00, 0x00, 0x00, 0x01, 0x00, 0x00, 0x00, 0x6e, 0xff, 0xff, 0xff, 0x00, 0x00, 0x00, 0x01, 0x01, 0x00, 0x00, 0x00, 0x10, 0x00, 0x00, 0x00, 0x03, 0x00, 0x00, 0x00, 0x0f, 0x00, 0x00, 0x00, 0x08, 0x00, 0x00, 0x00, 0x07, 0x00, 0x00, 0x00, 0x00, 0x00, 0x0e, 0x00, 0x18, 0x00, 0x14, 0x00, 0x10, 0x00, 0x0c, 0x00, 0x0b, 0x00, 0x04, 0x00, 0x0e, 0x00, 0x00, 0x00, 0x14, 0x00, 0x00, 0x00, 0x00, 0x00, 0x00, 0x08, 0x14, 0x00, 0x00, 0x00, 0x18, 0x00, 0x00, 0x00, 0x01, 0x00, 0x00, 0x00, 0xb6, 0xff, 0xff, 0xff, 0x00, 0x00, 0x00, 0x01, 0x01, 0x00, 0x00, 0x00, 0x0f, 0x00, 0x00, 0x00, 0x03, 0x00, 0x00, 0x00, 0x0e, 0x00, 0x00, 0x00, 0x0a, 0x00, 0x00, 0x00, 0x09, 0x00, 0x00, 0x00, 0x00, 0x00, 0x0e, 0x00, 0x1a, 0x00, 0x14, 0x00, 0x10, 0x00, 0x0c, 0x00, 0x0b, 0x00, 0x04, 0x00, 0x0e, 0x00, 0x00, 0x00, 0x1c, 0x00, 0x00, 0x00, 0x00, 0x00, 0x00, 0x08, 0x1c, 0x00, 0x00, 0x00, 0x20, 0x00, 0x00, 0x00, 0x01, 0x00, 0x00, 0x00, 0x00, 0x00, 0x06, 0x00, 0x08, 0x00, 0x07, 0x00, 0x06, 0x00, 0x00, 0x00, 0x00, 0x00, 0x00, 0x01, 0x01, 0x00, 0x00, 0x00, 0x0e, 0x00, 0x00, 0x00, 0x03, 0x00, 0x00, 0x00, 0x0d, 0x00, 0x00, 0x00, 0x0c, 0x00, 0x00, 0x00, 0x0b, 0x00, 0x00, 0x00, 0x00, 0x00, 0x0a, 0x00, 0x0c, 0x00, 0x00, 0x00, 0x08, 0x00, 0x04, 0x00, 0x0a, 0x00, 0x00, 0x00, 0x08, 0x00, 0x00, 0x00, 0x0c, 0x00, 0x00, 0x00, 0x01, 0x00, 0x00, 0x00, 0x0d, 0x00, 0x00, 0x00, 0x01, 0x00, 0x00, 0x00, 0x00, 0x00, 0x00, 0x00, 0x01, 0x00, 0x00, 0x00, 0x14, 0x00, 0x00, 0x00, 0x01, 0x00, 0x00, 0x00, 0x00, 0x00, 0x00, 0x00, 0x15, 0x00, 0x00, 0x00, 0xec, 0x09, 0x00, 0x00, 0x54, 0x09, 0x00, 0x00, 0xd4, 0x08, 0x00, 0x00, 0x60, 0x08, 0x00, 0x00, 0xfc, 0x07, 0x00, 0x00, 0x88, 0x07, 0x00, 0x00, 0x24, 0x07, 0x00, 0x00, 0xa8, 0x06, 0x00, 0x00, 0x3c, 0x06, 0x00, 0x00, 0xc8, 0x05, 0x00, 0x00, 0x64, 0x05, 0x00, 0x00, 0xf0, 0x04, 0x00, 0x00, 0x8c, 0x04, 0x00, 0x00, 0x18, 0x04, 0x00, 0x00, 0x64, 0x03, 0x00, 0x00, 0xc8, 0x02, 0x00, 0x00, 0x14, 0x02, 0x00, 0x00, 0x78, 0x01, 0x00, 0x00, 0xdc, 0x00, 0x00, 0x00, 0x60, 0x00, 0x00, 0x00, 0x04, 0x00, 0x00, 0x00, 0x7e, 0xf6, 0xff, 0xff, 0x00, 0x00, 0x00, 0x01, 0x14, 0x00, 0x00, 0x00, 0x1c, 0x00, 0x00, 0x00, 0x1c, 0x00, 0x00, 0x00, 0x15, 0x00, 0x00, 0x00, 0x34, 0x00, 0x00, 0x00, 0x02, 0x00, 0x00, 0x00, 0xff, 0xff, 0xff, 0xff, 0x08, 0x00, 0x00, 0x00, 0x68, 0xf6, 0xff, 0xff, 0x19, 0x00, 0x00, 0x00, 0x53, 0x74, 0x61, 0x74, 0x65, 0x66, 0x75, 0x6c, 0x50, 0x61, 0x72, 0x74, 0x69, 0x74, 0x69, 0x6f, 0x6e, 0x65, 0x64, 0x43, 0x61, 0x6c, 0x6c, 0x3a, 0x30, 0x00, 0x00, 0x00, 0x02, 0x00, 0x00, 0x00, 0x01, 0x00, 0x00, 0x00, 0x08, 0x00, 0x00, 0x00, 0x76, 0xfc, 0xff, 0xff, 0x00, 0x00, 0x00, 0x01, 0x18, 0x00, 0x00, 0x00, 0x20, 0x00, 0x00, 0x00, 0x3c, 0x00, 0x00, 0x00, 0x14, 0x00, 0x00, 0x00, 0x00, 0x00, 0x00, 0x09, 0x50, 0x00, 0x00, 0x00, 0x02, 0x00, 0x00, 0x00, 0xff, 0xff, 0xff, 0xff, 0x08, 0x00, 0x00, 0x00, 0x64, 0xf7, 0xff, 0xff, 0x08, 0x00, 0x00, 0x00, 0x10, 0x00, 0x00, 0x00, 0x01, 0x00, 0x00, 0x00, 0xcd, 0xff, 0xff, 0xff, 0xff, 0xff, 0xff, 0xff, 0x01, 0x00, 0x00, 0x00, 0xd5, 0xf6, 0x18, 0x3d, 0x1a, 0x00, 0x00, 0x00, 0x53, 0x74, 0x61, 0x74, 0x65, 0x66, 0x75, 0x6c, 0x50, 0x61, 0x72, 0x74, 0x69, 0x74, 0x69, 0x6f, 0x6e, 0x65, 0x64, 0x43, 0x61, 0x6c, 0x6c, 0x3a, 0x30, 0x31, 0x00, 0x00, 0x02, 0x00, 0x00, 0x00, 0x01, 0x00, 0x00, 0x00, 0x08, 0x00, 0x00, 0x00, 0xee, 0xfc, 0xff, 0xff, 0x00, 0x00, 0x00, 0x01, 0x18, 0x00, 0x00, 0x00, 0x20, 0x00, 0x00, 0x00, 0x3c, 0x00, 0x00, 0x00, 0x13, 0x00, 0x00, 0x00, 0x00, 0x00, 0x00, 0x09, 0x70, 0x00, 0x00, 0x00, 0x02, 0x00, 0x00, 0x00, 0xff, 0xff, 0xff, 0xff, 0x10, 0x00, 0x00, 0x00, 0xdc, 0xf7, 0xff, 0xff, 0x08, 0x00, 0x00, 0x00, 0x10, 0x00, 0x00, 0x00, 0x01, 0x00, 0x00, 0x00, 0x80, 0xff, 0xff, 0xff, 0xff, 0xff, 0xff, 0xff, 0x01, 0x00, 0x00, 0x00, 0xd8, 0xb2, 0x4e, 0x3d, 0x3a, 0x00, 0x00, 0x00, 0x48, 0x65, 0x61, 0x72, 0x74, 0x41, 0x45, 0x2f, 0x64, 0x65, 0x63, 0x32, 0x2f, 0x4d, 0x61, 0x74, 0x4d, 0x75, 0x6c, 0x3b, 0x48, 0x65, 0x61, 0x72, 0x74, 0x41, 0x45, 0x2f, 0x64, 0x65, 0x63, 0x32, 0x2f, 0x52, 0x65, 0x6c, 0x75, 0x3b, 0x48, 0x65, 0x61, 0x72, 0x74, 0x41, 0x45, 0x2f, 0x64, 0x65, 0x63, 0x32, 0x2f, 0x42, 0x69, 0x61, 0x73, 0x41, 0x64, 0x64, 0x00, 0x00, 0x02, 0x00, 0x00, 0x00, 0x01, 0x00, 0x00, 0x00, 0x10, 0x00, 0x00, 0x00, 0x86, 0xfd, 0xff, 0xff, 0x00, 0x00, 0x00, 0x01, 0x18, 0x00, 0x00, 0x00, 0x20, 0x00, 0x00, 0x00, 0x3c, 0x00, 0x00, 0x00, 0x12, 0x00, 0x00, 0x00, 0x00, 0x00, 0x00, 0x09, 0x70, 0x00, 0x00, 0x00, 0x02, 0x00, 0x00, 0x00, 0xff, 0xff, 0xff, 0xff, 0x08, 0x00, 0x00, 0x00, 0x74, 0xf8, 0xff, 0xff, 0x08, 0x00, 0x00, 0x00, 0x10, 0x00, 0x00, 0x00, 0x01, 0x00, 0x00, 0x00, 0x80, 0xff, 0xff, 0xff, 0xff, 0xff, 0xff, 0xff, 0x01, 0x00, 0x00, 0x00, 0xda, 0xf2, 0x24, 0x3d, 0x3a, 0x00, 0x00, 0x00, 0x48, 0x65, 0x61, 0x72, 0x74, 0x41, 0x45, 0x2f, 0x64, 0x65, 0x63, 0x31, 0x2f, 0x4d, 0x61, 0x74, 0x4d, 0x75, 0x6c, 0x3b, 0x48, 0x65, 0x61, 0x72, 0x74, 0x41, 0x45, 0x2f, 0x64, 0x65, 0x63, 0x31, 0x2f, 0x52, 0x65, 0x6c, 0x75, 0x3b, 0x48, 0x65, 0x61, 0x72, 0x74, 0x41, 0x45, 0x2f, 0x64, 0x65, 0x63, 0x31, 0x2f, 0x42, 0x69, 0x61, 0x73, 0x41, 0x64, 0x64, 0x00, 0x00, 0x02, 0x00, 0x00, 0x00, 0x01, 0x00, 0x00, 0x00, 0x08, 0x00, 0x00, 0x00, 0x1e, 0xfe, 0xff, 0xff, 0x00, 0x00, 0x00, 0x01, 0x18, 0x00, 0x00, 0x00, 0x20, 0x00, 0x00, 0x00, 0x40, 0x00, 0x00, 0x00, 0x11, 0x00, 0x00, 0x00, 0x00, 0x00, 0x00, 0x09, 0x88, 0x00, 0x00, 0x00, 0x02, 0x00, 0x00, 0x00, 0xff, 0xff, 0xff, 0xff, 0x04, 0x00, 0x00, 0x00, 0x0c, 0xf9, 0xff, 0xff, 0x08, 0x00, 0x00, 0x00, 0x14, 0x00, 0x00, 0x00, 0x01, 0x00, 0x00, 0x00, 0x80, 0xff, 0xff, 0xff, 0xff, 0xff, 0xff, 0xff, 0x00, 0x00, 0x00, 0x00, 0x01, 0x00, 0x00, 0x00, 0xd7, 0xf0, 0x1d, 0x3d, 0x4c, 0x00, 0x00, 0x00, 0x48, 0x65, 0x61, 0x72, 0x74, 0x41, 0x45, 0x2f, 0x62, 0x6f, 0x74, 0x74, 0x6c, 0x65, 0x6e, 0x65, 0x63, 0x6b, 0x2f, 0x4d, 0x61, 0x74, 0x4d, 0x75, 0x6c, 0x3b, 0x48, 0x65, 0x61, 0x72, 0x74, 0x41, 0x45, 0x2f, 0x62, 0x6f, 0x74, 0x74, 0x6c, 0x65, 0x6e, 0x65, 0x63, 0x6b, 0x2f, 0x52, 0x65, 0x6c, 0x75, 0x3b, 0x48, 0x65, 0x61, 0x72, 0x74, 0x41, 0x45, 0x2f, 0x62, 0x6f, 0x74, 0x74, 0x6c, 0x65, 0x6e, 0x65, 0x63, 0x6b, 0x2f, 0x42, 0x69, 0x61, 0x73, 0x41, 0x64, 0x64, 0x00, 0x00, 0x00, 0x00, 0x02, 0x00, 0x00, 0x00, 0x01, 0x00, 0x00, 0x00, 0x04, 0x00, 0x00, 0x00, 0xce, 0xfe, 0xff, 0xff, 0x00, 0x00, 0x00, 0x01, 0x18, 0x00, 0x00, 0x00, 0x20, 0x00, 0x00, 0x00, 0x3c, 0x00, 0x00, 0x00, 0x10, 0x00, 0x00, 0x00, 0x00, 0x00, 0x00, 0x09, 0x70, 0x00, 0x00, 0x00, 0x02, 0x00, 0x00, 0x00, 0xff, 0xff, 0xff, 0xff, 0x08, 0x00, 0x00, 0x00, 0xbc, 0xf9, 0xff, 0xff, 0x08, 0x00, 0x00, 0x00, 0x10, 0x00, 0x00, 0x00, 0x01, 0x00, 0x00, 0x00, 0x80, 0xff, 0xff, 0xff, 0xff, 0xff, 0xff, 0xff, 0x01, 0x00, 0x00, 0x00, 0xcc, 0x20, 0xf2, 0x3c, 0x3a, 0x00, 0x00, 0x00, 0x48, 0x65, 0x61, 0x72, 0x74, 0x41, 0x45, 0x2f, 0x65, 0x6e, 0x63, 0x32, 0x2f, 0x4d, 0x61, 0x74, 0x4d, 0x75, 0x6c, 0x3b, 0x48, 0x65, 0x61, 0x72, 0x74, 0x41, 0x45, 0x2f, 0x65, 0x6e, 0x63, 0x32, 0x2f, 0x52, 0x65, 0x6c, 0x75, 0x3b, 0x48, 0x65, 0x61, 0x72, 0x74, 0x41, 0x45, 0x2f, 0x65, 0x6e, 0x63, 0x32, 0x2f, 0x42, 0x69, 0x61, 0x73, 0x41, 0x64, 0x64, 0x00, 0x00, 0x02, 0x00, 0x00, 0x00, 0x01, 0x00, 0x00, 0x00, 0x08, 0x00, 0x00, 0x00, 0x66, 0xff, 0xff, 0xff, 0x00, 0x00, 0x00, 0x01, 0x18, 0x00, 0x00, 0x00, 0x20, 0x00, 0x00, 0x00, 0x3c, 0x00, 0x00, 0x00, 0x0f, 0x00, 0x00, 0x00, 0x00, 0x00, 0x00, 0x09, 0x70, 0x00, 0x00, 0x00, 0x02, 0x00, 0x00, 0x00, 0xff, 0xff, 0xff, 0xff, 0x10, 0x00, 0x00, 0x00, 0x54, 0xfa, 0xff, 0xff, 0x08, 0x00, 0x00, 0x00, 0x10, 0x00, 0x00, 0x00, 0x01, 0x00, 0x00, 0x00, 0x80, 0xff, 0xff, 0xff, 0xff, 0xff, 0xff, 0xff, 0x01, 0x00, 0x00, 0x00, 0x81, 0xf6, 0xcc, 0x3c, 0x3a, 0x00, 0x00, 0x00, 0x48, 0x65, 0x61, 0x72, 0x74, 0x41, 0x45, 0x2f, 0x65, 0x6e, 0x63, 0x31, 0x2f, 0x4d, 0x61, 0x74, 0x4d, 0x75, 0x6c, 0x3b, 0x48, 0x65, 0x61, 0x72, 0x74, 0x41, 0x45, 0x2f, 0x65, 0x6e, 0x63, 0x31, 0x2f, 0x52, 0x65, 0x6c, 0x75, 0x3b, 0x48, 0x65, 0x61, 0x72, 0x74, 0x41, 0x45, 0x2f, 0x65, 0x6e, 0x63, 0x31, 0x2f, 0x42, 0x69, 0x61, 0x73, 0x41, 0x64, 0x64, 0x00, 0x00, 0x02, 0x00, 0x00, 0x00, 0x01, 0x00, 0x00, 0x00, 0x10, 0x00, 0x00, 0x00, 0x00, 0x00, 0x16, 0x00, 0x20, 0x00, 0x1c, 0x00, 0x1b, 0x00, 0x14, 0x00, 0x10, 0x00, 0x0c, 0x00, 0x00, 0x00, 0x00, 0x00, 0x08, 0x00, 0x07, 0x00, 0x16, 0x00, 0x00, 0x00, 0x00, 0x00, 0x00, 0x01, 0x18, 0x00, 0x00, 0x00, 0x20, 0x00, 0x00, 0x00, 0x40, 0x00, 0x00, 0x00, 0x0e, 0x00, 0x00, 0x00, 0x00, 0x00, 0x00, 0x09, 0x48, 0x00, 0x00, 0x00, 0x02, 0x00, 0x00, 0x00, 0xff, 0xff, 0xff, 0xff, 0x08, 0x00, 0x00, 0x00, 0x04, 0xfb, 0xff, 0xff, 0x08, 0x00, 0x00, 0x00, 0x14, 0x00, 0x00, 0x00, 0x01, 0x00, 0x00, 0x00, 0xc4, 0xff, 0xff, 0xff, 0xff, 0xff, 0xff, 0xff, 0x00, 0x00, 0x00, 0x00, 0x01, 0x00, 0x00, 0x00, 0x6e, 0x81, 0x11, 0x3d, 0x0c, 0x00, 0x00, 0x00, 0x74, 0x66, 0x6c, 0x2e, 0x71, 0x75, 0x61, 0x6e, 0x74, 0x69, 0x7a, 0x65, 0x00, 0x00, 0x00, 0x00, 0x02, 0x00, 0x00, 0x00, 0x01, 0x00, 0x00, 0x00, 0x08, 0x00, 0x00, 0x00, 0x7a, 0xfb, 0xff, 0xff, 0x00, 0x00, 0x00, 0x01, 0x14, 0x00, 0x00, 0x00, 0x30, 0x00, 0x00, 0x00, 0x0d, 0x00, 0x00, 0x00, 0x00, 0x00, 0x00, 0x09, 0x3c, 0x00, 0x00, 0x00, 0x64, 0xfb, 0xff, 0xff, 0x08, 0x00, 0x00, 0x00, 0x10, 0x00, 0x00, 0x00, 0x01, 0x00, 0x00, 0x00, 0x00, 0x00, 0x00, 0x00, 0x00, 0x00, 0x00, 0x00, 0x01, 0x00, 0x00, 0x00, 0xaa, 0xb2, 0x40, 0x3c, 0x13, 0x00, 0x00, 0x00, 0x48, 0x65, 0x61, 0x72, 0x74, 0x41, 0x45, 0x2f, 0x65, 0x6e, 0x63, 0x31, 0x2f, 0x4d, 0x61, 0x74, 0x4d, 0x75, 0x6c, 0x00, 0x02, 0x00, 0x00, 0x00, 0x10, 0x00, 0x00, 0x00, 0x08, 0x00, 0x00, 0x00, 0xda, 0xfb, 0xff, 0xff, 0x00, 0x00, 0x00, 0x01, 0x14, 0x00, 0x00, 0x00, 0x34, 0x00, 0x00, 0x00, 0x0c, 0x00, 0x00, 0x00, 0x00, 0x00, 0x00, 0x02, 0x50, 0x00, 0x00, 0x00, 0xc4, 0xfb, 0xff, 0xff, 0x08, 0x00, 0x00, 0x00, 0x14, 0x00, 0x00, 0x00, 0x01, 0x00, 0x00, 0x00, 0x00, 0x00, 0x00, 0x00, 0x00, 0x00, 0x00, 0x00, 0x00, 0x00, 0x00, 0x00, 0x01, 0x00, 0x00, 0x00, 0x3e, 0x0d, 0xdb, 0x39, 0x23, 0x00, 0x00, 0x00, 0x48, 0x65, 0x61, 0x72, 0x74, 0x41, 0x45, 0x2f, 0x65, 0x6e, 0x63, 0x31, 0x2f, 0x42, 0x69, 0x61, 0x73, 0x41, 0x64, 0x64, 0x2f, 0x52, 0x65, 0x61, 0x64, 0x56, 0x61, 0x72, 0x69, 0x61, 0x62, 0x6c, 0x65, 0x4f, 0x70, 0x00, 0x01, 0x00, 0x00, 0x00, 0x10, 0x00, 0x00, 0x00, 0x4a, 0xfc, 0xff, 0xff, 0x00, 0x00, 0x00, 0x01, 0x14, 0x00, 0x00, 0x00, 0x30, 0x00, 0x00, 0x00, 0x0b, 0x00, 0x00, 0x00, 0x00, 0x00, 0x00, 0x09, 0x3c, 0x00, 0x00, 0x00, 0x34, 0xfc, 0xff, 0xff, 0x08, 0x00, 0x00, 0x00, 0x10, 0x00, 0x00, 0x00, 0x01, 0x00, 0x00, 0x00, 0x00, 0x00, 0x00, 0x00, 0x00, 0x00, 0x00, 0x00, 0x01, 0x00, 0x00, 0x00, 0x68, 0x63, 0x33, 0x3c, 0x13, 0x00, 0x00, 0x00, 0x48, 0x65, 0x61, 0x72, 0x74, 0x41, 0x45, 0x2f, 0x65, 0x6e, 0x63, 0x32, 0x2f, 0x4d, 0x61, 0x74, 0x4d, 0x75, 0x6c, 0x00, 0x02, 0x00, 0x00, 0x00, 0x08, 0x00, 0x00, 0x00, 0x10, 0x00, 0x00, 0x00, 0xaa, 0xfc, 0xff, 0xff, 0x00, 0x00, 0x00, 0x01, 0x14, 0x00, 0x00, 0x00, 0x34, 0x00, 0x00, 0x00, 0x0a, 0x00, 0x00, 0x00, 0x00, 0x00, 0x00, 0x02, 0x50, 0x00, 0x00, 0x00, 0x94, 0xfc, 0xff, 0xff, 0x08, 0x00, 0x00, 0x00, 0x14, 0x00, 0x00, 0x00, 0x01, 0x00, 0x00, 0x00, 0x00, 0x00, 0x00, 0x00, 0x00, 0x00, 0x00, 0x00, 0x00, 0x00, 0x00, 0x00, 0x01, 0x00, 0x00, 0x00, 0xf3, 0x9f, 0x8f, 0x39, 0x23, 0x00, 0x00, 0x00, 0x48, 0x65, 0x61, 0x72, 0x74, 0x41, 0x45, 0x2f, 0x65, 0x6e, 0x63, 0x32, 0x2f, 0x42, 0x69, 0x61, 0x73, 0x41, 0x64, 0x64, 0x2f, 0x52, 0x65, 0x61, 0x64, 0x56, 0x61, 0x72, 0x69, 0x61, 0x62, 0x6c, 0x65, 0x4f, 0x70, 0x00, 0x01, 0x00, 0x00, 0x00, 0x08, 0x00, 0x00, 0x00, 0x1a, 0xfd, 0xff, 0xff, 0x00, 0x00, 0x00, 0x01, 0x14, 0x00, 0x00, 0x00, 0x30, 0x00, 0x00, 0x00, 0x09, 0x00, 0x00, 0x00, 0x00, 0x00, 0x00, 0x09, 0x44, 0x00, 0x00, 0x00, 0x04, 0xfd, 0xff, 0xff, 0x08, 0x00, 0x00, 0x00, 0x10, 0x00, 0x00, 0x00, 0x01, 0x00, 0x00, 0x00, 0x00, 0x00, 0x00, 0x00, 0x00, 0x00, 0x00, 0x00, 0x01, 0x00, 0x00, 0x00, 0x06, 0xbe, 0x10, 0x3c, 0x19, 0x00, 0x00, 0x00, 0x48, 0x65, 0x61, 0x72, 0x74, 0x41, 0x45, 0x2f, 0x62, 0x6f, 0x74, 0x74, 0x6c, 0x65, 0x6e, 0x65, 0x63, 0x6b, 0x2f, 0x4d, 0x61, 0x74, 0x4d, 0x75, 0x6c, 0x00, 0x00, 0x00, 0x02, 0x00, 0x00, 0x00, 0x04, 0x00, 0x00, 0x00, 0x08, 0x00, 0x00, 0x00, 0x82, 0xfd, 0xff, 0xff, 0x00, 0x00, 0x00, 0x01, 0x14, 0x00, 0x00, 0x00, 0x34, 0x00, 0x00, 0x00, 0x08, 0x00, 0x00, 0x00, 0x00, 0x00, 0x00, 0x02, 0x58, 0x00, 0x00, 0x00, 0x6c, 0xfd, 0xff, 0xff, 0x08, 0x00, 0x00, 0x00, 0x14, 0x00, 0x00, 0x00, 0x01, 0x00, 0x00, 0x00, 0x00, 0x00, 0x00, 0x00, 0x00, 0x00, 0x00, 0x00, 0x00, 0x00, 0x00, 0x00, 0x01, 0x00, 0x00, 0x00, 0x2d, 0xe6, 0x88, 0x39, 0x29, 0x00, 0x00, 0x00, 0x48, 0x65, 0x61, 0x72, 0x74, 0x41, 0x45, 0x2f, 0x62, 0x6f, 0x74, 0x74, 0x6c, 0x65, 0x6e, 0x65, 0x63, 0x6b, 0x2f, 0x42, 0x69, 0x61, 0x73, 0x41, 0x64, 0x64, 0x2f, 0x52, 0x65, 0x61, 0x64, 0x56, 0x61, 0x72, 0x69, 0x61, 0x62, 0x6c, 0x65, 0x4f, 0x70, 0x00, 0x00, 0x00, 0x01, 0x00, 0x00, 0x00, 0x04, 0x00, 0x00, 0x00, 0xfa, 0xfd, 0xff, 0xff, 0x00, 0x00, 0x00, 0x01, 0x14, 0x00, 0x00, 0x00, 0x30, 0x00, 0x00, 0x00, 0x07, 0x00, 0x00, 0x00, 0x00, 0x00, 0x00, 0x09, 0x3c, 0x00, 0x00, 0x00, 0xe4, 0xfd, 0xff, 0xff, 0x08, 0x00, 0x00, 0x00, 0x10, 0x00, 0x00, 0x00, 0x01, 0x00, 0x00, 0x00, 0x00, 0x00, 0x00, 0x00, 0x00, 0x00, 0x00, 0x00, 0x01, 0x00, 0x00, 0x00, 0xb2, 0x95, 0x03, 0x3c, 0x13, 0x00, 0x00, 0x00, 0x48, 0x65, 0x61, 0x72, 0x74, 0x41, 0x45, 0x2f, 0x64, 0x65, 0x63, 0x31, 0x2f, 0x4d, 0x61, 0x74, 0x4d, 0x75, 0x6c, 0x00, 0x02, 0x00, 0x00, 0x00, 0x08, 0x00, 0x00, 0x00, 0x04, 0x00, 0x00, 0x00, 0x5a, 0xfe, 0xff, 0xff, 0x00, 0x00, 0x00, 0x01, 0x14, 0x00, 0x00, 0x00, 0x34, 0x00, 0x00, 0x00, 0x06, 0x00, 0x00, 0x00, 0x00, 0x00, 0x00, 0x02, 0x50, 0x00, 0x00, 0x00, 0x44, 0xfe, 0xff, 0xff, 0x08, 0x00, 0x00, 0x00, 0x14, 0x00, 0x00, 0x00, 0x01, 0x00, 0x00, 0x00, 0x00, 0x00, 0x00, 0x00, 0x00, 0x00, 0x00, 0x00, 0x00, 0x00, 0x00, 0x00, 0x01, 0x00, 0x00, 0x00, 0x32, 0x5d, 0xa2, 0x39, 0x23, 0x00, 0x00, 0x00, 0x48, 0x65, 0x61, 0x72, 0x74, 0x41, 0x45, 0x2f, 0x64, 0x65, 0x63, 0x31, 0x2f, 0x42, 0x69, 0x61, 0x73, 0x41, 0x64, 0x64, 0x2f, 0x52, 0x65, 0x61, 0x64, 0x56, 0x61, 0x72, 0x69, 0x61, 0x62, 0x6c, 0x65, 0x4f, 0x70, 0x00, 0x01, 0x00, 0x00, 0x00, 0x08, 0x00, 0x00, 0x00, 0xca, 0xfe, 0xff, 0xff, 0x00, 0x00, 0x00, 0x01, 0x14, 0x00, 0x00, 0x00, 0x30, 0x00, 0x00, 0x00, 0x05, 0x00, 0x00, 0x00, 0x00, 0x00, 0x00, 0x09, 0x3c, 0x00, 0x00, 0x00, 0xb4, 0xfe, 0xff, 0xff, 0x08, 0x00, 0x00, 0x00, 0x10, 0x00, 0x00, 0x00, 0x01, 0x00, 0x00, 0x00, 0x00, 0x00, 0x00, 0x00, 0x00, 0x00, 0x00, 0x00, 0x01, 0x00, 0x00, 0x00, 0x4e, 0xa4, 0xe2, 0x3b, 0x13, 0x00, 0x00, 0x00, 0x48, 0x65, 0x61, 0x72, 0x74, 0x41, 0x45, 0x2f, 0x64, 0x65, 0x63, 0x32, 0x2f, 0x4d, 0x61, 0x74, 0x4d, 0x75, 0x6c, 0x00, 0x02, 0x00, 0x00, 0x00, 0x10, 0x00, 0x00, 0x00, 0x08, 0x00, 0x00, 0x00, 0x2a, 0xff, 0xff, 0xff, 0x00, 0x00, 0x00, 0x01, 0x14, 0x00, 0x00, 0x00, 0x34, 0x00, 0x00, 0x00, 0x04, 0x00, 0x00, 0x00, 0x00, 0x00, 0x00, 0x02, 0x50, 0x00, 0x00, 0x00, 0x14, 0xff, 0xff, 0xff, 0x08, 0x00, 0x00, 0x00, 0x14, 0x00, 0x00, 0x00, 0x01, 0x00, 0x00, 0x00, 0x00, 0x00, 0x00, 0x00, 0x00, 0x00, 0x00, 0x00, 0x00, 0x00, 0x00, 0x00, 0x01, 0x00, 0x00, 0x00, 0x42, 0x08, 0x92, 0x39, 0x23, 0x00, 0x00, 0x00, 0x48, 0x65, 0x61, 0x72, 0x74, 0x41, 0x45, 0x2f, 0x64, 0x65, 0x63, 0x32, 0x2f, 0x42, 0x69, 0x61, 0x73, 0x41, 0x64, 0x64, 0x2f, 0x52, 0x65, 0x61, 0x64, 0x56, 0x61, 0x72, 0x69, 0x61, 0x62, 0x6c, 0x65, 0x4f, 0x70, 0x00, 0x01, 0x00, 0x00, 0x00, 0x10, 0x00, 0x00, 0x00, 0x9a, 0xff, 0xff, 0xff, 0x00, 0x00, 0x00, 0x01, 0x14, 0x00, 0x00, 0x00, 0x30, 0x00, 0x00, 0x00, 0x03, 0x00, 0x00, 0x00, 0x00, 0x00, 0x00, 0x09, 0x40, 0x00, 0x00, 0x00, 0x84, 0xff, 0xff, 0xff, 0x08, 0x00, 0x00, 0x00, 0x10, 0x00, 0x00, 0x00, 0x01, 0x00, 0x00, 0x00, 0x00, 0x00, 0x00, 0x00, 0x00, 0x00, 0x00, 0x00, 0x01, 0x00, 0x00, 0x00, 0x14, 0xd5, 0x04, 0x3c, 0x15, 0x00, 0x00, 0x00, 0x48, 0x65, 0x61, 0x72, 0x74, 0x41, 0x45, 0x2f, 0x6f, 0x75, 0x74, 0x70, 0x75, 0x74, 0x2f, 0x4d, 0x61, 0x74, 0x4d, 0x75, 0x6c, 0x00, 0x00, 0x00, 0x02, 0x00, 0x00, 0x00, 0x08, 0x00, 0x00, 0x00, 0x10, 0x00, 0x00, 0x00, 0x00, 0x00, 0x16, 0x00, 0x1c, 0x00, 0x18, 0x00, 0x17, 0x00, 0x10, 0x00, 0x0c, 0x00, 0x08, 0x00, 0x00, 0x00, 0x00, 0x00, 0x00, 0x00, 0x07, 0x00, 0x16, 0x00, 0x00, 0x00, 0x00, 0x00, 0x00, 0x01, 0x20, 0x00, 0x00, 0x00, 0x3c, 0x00, 0x00, 0x00, 0x02, 0x00, 0x00, 0x00, 0x00, 0x00, 0x00, 0x02, 0x5c, 0x00, 0x00, 0x00, 0x0c, 0x00, 0x0c, 0x00, 0x00, 0x00, 0x00, 0x00, 0x08, 0x00, 0x04, 0x00, 0x0c, 0x00, 0x00, 0x00, 0x08, 0x00, 0x00, 0x00, 0x10, 0x00, 0x00, 0x00, 0x01, 0x00, 0x00, 0x00, 0x00, 0x00, 0x00, 0x00, 0x00, 0x00, 0x00, 0x00, 0x01, 0x00, 0x00, 0x00, 0x85, 0x80, 0xd6, 0x39, 0x25, 0x00, 0x00, 0x00, 0x48, 0x65, 0x61, 0x72, 0x74, 0x41, 0x45, 0x2f, 0x6f, 0x75, 0x74, 0x70, 0x75, 0x74, 0x2f, 0x42, 0x69, 0x61, 0x73, 0x41, 0x64, 0x64, 0x2f, 0x52, 0x65, 0x61, 0x64, 0x56, 0x61, 0x72, 0x69, 0x61, 0x62, 0x6c, 0x65, 0x4f, 0x70, 0x00, 0x00, 0x00, 0x01, 0x00, 0x00, 0x00, 0x08, 0x00, 0x00, 0x00, 0x00, 0x00, 0x16, 0x00, 0x1c, 0x00, 0x18, 0x00, 0x00, 0x00, 0x14, 0x00, 0x10, 0x00, 0x0c, 0x00, 0x00, 0x00, 0x00, 0x00, 0x08, 0x00, 0x07, 0x00, 0x16, 0x00, 0x00, 0x00, 0x00, 0x00, 0x00, 0x01, 0x14, 0x00, 0x00, 0x00, 0x20, 0x00, 0x00, 0x00, 0x20, 0x00, 0x00, 0x00, 0x01, 0x00, 0x00, 0x00, 0x34, 0x00, 0x00, 0x00, 0x02, 0x00, 0x00, 0x00, 0xff, 0xff, 0xff, 0xff, 0x08, 0x00, 0x00, 0x00, 0x04, 0x00, 0x04, 0x00, 0x04, 0x00, 0x00, 0x00, 0x17, 0x00, 0x00, 0x00, 0x73, 0x65, 0x72, 0x76, 0x69, 0x6e, 0x67, 0x5f, 0x64, 0x65, 0x66, 0x61, 0x75, 0x6c, 0x74, 0x5f, 0x69, 0x6e, 0x70, 0x75, 0x74, 0x3a, 0x30, 0x00, 0x02, 0x00, 0x00, 0x00, 0x01, 0x00, 0x00, 0x00, 0x08, 0x00, 0x00, 0x00, 0x03, 0x00, 0x00, 0x00, 0x44, 0x00, 0x00, 0x00, 0x24, 0x00, 0x00, 0x00, 0x04, 0x00, 0x00, 0x00, 0xf0, 0xff, 0xff, 0xff, 0x06, 0x00, 0x00, 0x00, 0x02, 0x00, 0x00, 0x00, 0x00, 0x00, 0x00, 0x06, 0x0c, 0x00, 0x10, 0x00, 0x0f, 0x00, 0x00, 0x00, 0x08, 0x00, 0x04, 0x00, 0x0c, 0x00, 0x00, 0x00, 0x09, 0x00, 0x00, 0x00, 0x04, 0x00, 0x00, 0x00, 0x00, 0x00, 0x00, 0x09, 0x0c, 0x00, 0x0c, 0x00, 0x0b, 0x00, 0x00, 0x00, 0x00, 0x00, 0x04, 0x00, 0x0c, 0x00, 0x00, 0x00, 0x72, 0x00, 0x00, 0x00, 0x00, 0x00, 0x00, 0x72
};

// Scaler parameters — apply these BEFORE feeding to model
// normalized = (raw - mean) / scale
const float scaler_mean[8]  = {0.037633f, 3.563934f, 35.009956f, 1.144484f, 6.705809f, 1.439769f, 0.057036f, -2.084948f};
const float scaler_scale[8] = {0.967837f, 3.607512f, 59.970237f, 1.301442f, 4.609365f, 2.170135f, 2.045468f, 5.358674f};

// Anomaly detection threshold
// If reconstruction MSE > this value → anomaly detected
const float anomaly_threshold = 0.088930f;

// Feature index reference:
// [0] hr_zscore        [1] hr_std
// [2] rmssd            [3] activity_code
// [4] accel_mean       [5] accel_std
// [6] hr_delta         [7] activity_hr_ratio

#endif // HEART_MODEL_H
